<unk>	0
<s>	0
</s>	0
<pad>	0
,	-3.11794
.	-3.58713
▁в	-4.04039
а	-4.22208
е	-4.25171
▁с	-4.30381
▁не	-4.34708
▁-	-4.35673
▁и	-4.38193
▁на	-4.41581
▁	-4.50577
и	-4.6128
▁у	-4.68851
▁а	-4.70006
-	-4.72971
▁по	-4.73456
!	-4.78855
у	-4.791
▁что	-4.84668
м	-4.85475
?-	-4.94914
т	-4.98044
▁я	-5.02328
с	-5.03066
▁за	-5.10332
р	-5.11738
й	-5.2123
д	-5.22041
ли	-5.22122
л	-5.24484
в	-5.25878
н	-5.28554
▁вы	-5.29048
я	-5.30224
к	-5.37937
о	-5.43989
...	-5.44707
ы	-5.46099
▁как	-5.51816
.-	-5.52011
?	-5.52974
▁к	-5.53779
з	-5.54653
▁это	-5.54728
ка	-5.56845
ла	-5.57304
▁ты	-5.60922
ю	-5.62888
ов	-5.63929
ра	-5.67037
▁о	-5.67147
п	-5.69076
▁от	-5.6928
ет	-5.72497
то	-5.73163
▁при	-5.78349
х	-5.78361
ст	-5.79303
ж	-5.80963
ки	-5.81446
▁про	-5.81512
но	-5.82012
на	-5.83568
ом	-5.85248
ку	-5.8727
ч	-5.88467
▁да	-5.89273
ль	-5.90029
ло	-5.90482
ш	-5.90986
ть	-5.92009
▁из	-5.93143
▁но	-5.94129
▁так	-5.98432
!-	-5.99355
б	-6.01267
ле	-6.01607
▁все	-6.0234
го	-6.07401
да	-6.08149
г	-6.10104
ни	-6.10632
▁до	-6.11917
ь	-6.14943
▁то	-6.15652
те	-6.15879
▁раз	-6.17153
▁меня	-6.17641
▁если	-6.17662
ем	-6.19258
▁когда	-6.20855
▁под	-6.21978
▁он	-6.23378
ва	-6.2345
ри	-6.24721
ить	-6.24852
та	-6.25213
ти	-6.2607
▁мне	-6.29827
ой	-6.30553
ко	-6.32257
че	-6.33625
во	-6.33703
не	-6.33805
▁со	-6.34677
де	-6.34855
ся	-6.34949
▁же	-6.39386
ми	-6.40301
ать	-6.44202
ве	-6.44282
ре	-6.44513
▁нет	-6.45396
по	-6.49025
ля	-6.50791
▁во	-6.51538
ер	-6.5164
▁ну	-6.53046
ро	-6.53225
ит	-6.53742
па	-6.54215
ди	-6.55384
ру	-6.5565
▁бы	-6.56307
га	-6.56474
чи	-6.56559
▁только	-6.57996
ный	-6.59238
ви	-6.59926
ке	-6.60952
щ	-6.62391
ма	-6.6338
ча	-6.64392
▁об	-6.65304
ешь	-6.67549
▁п	-6.68021
ной	-6.68187
ду	-6.682
ф	-6.69066
▁мы	-6.7018
▁почему	-6.70723
▁его	-6.71549
до	-6.7176
▁ка	-6.71956
ше	-6.73262
жи	-6.73268
▁чтобы	-6.73386
▁вас	-6.73664
ят	-6.73908
▁д	-6.74455
ста	-6.75315
▁ко	-6.7551
за	-6.75702
▁тебя	-6.77369
ну	-6.78718
ал	-6.80086
▁уже	-6.80383
▁еще	-6.80612
ные	-6.8065
▁она	-6.80762
▁ма	-6.8295
▁пере	-6.83583
▁для	-6.84388
он	-6.84728
ры	-6.8518
ня	-6.85342
лу	-6.86104
ок	-6.86563
ход	-6.86916
ту	-6.86933
ую	-6.8775
▁есть	-6.87915
ей	-6.87956
▁вот	-6.8862
ша	-6.89443
му	-6.91584
▁ли	-6.92554
ый	-6.92807
▁кто	-6.93731
ами	-6.95487
▁чем	-6.95643
би	-6.95729
▁мо	-6.96367
ная	-6.96863
ши	-6.96915
▁ре	-6.97278
▁г	-6.97891
бо	-6.98171
же	-6.98284
ен	-6.9883
ая	-6.99143
ого	-6.99158
ин	-7.00628
ря	-7.00716
ил	-7.03253
▁нас	-7.03703
▁бо	-7.03999
▁говорит	-7.04072
им	-7.04117
▁ме	-7.04177
▁па	-7.06
ны	-7.07181
ется	-7.07471
▁жена	-7.07825
▁з	-7.08282
▁после	-7.09436
мо	-7.09824
▁тебе	-7.10042
▁они	-7.11233
тель	-7.11305
жа	-7.1322
▁пол	-7.13371
це	-7.13459
пи	-7.14079
▁те	-7.16376
▁один	-7.16672
ца	-7.16681
▁пи	-7.17124
сти	-7.17237
ор	-7.17331
са	-7.17645
ют	-7.17914
▁лет	-7.18225
щи	-7.18233
ах	-7.19326
▁будет	-7.19995
ты	-7.20181
▁ни	-7.20718
▁два	-7.2094
ан	-7.21468
ще	-7.2149
▁можно	-7.21931
▁ее	-7.2234
ков	-7.22393
лю	-7.22464
ба	-7.23321
об	-7.23333
▁ж	-7.23536
▁муж	-7.2366
▁вам	-7.23776
▁может	-7.23825
▁без	-7.23899
ного	-7.24047
ци	-7.25137
ц	-7.25435
ров	-7.26119
кой	-7.26538
▁ш	-7.272
▁мужик	-7.27499
▁там	-7.27865
ных	-7.29356
ник	-7.29545
си	-7.30035
▁надо	-7.30825
лся	-7.30861
▁просто	-7.31027
▁где	-7.31163
ения	-7.32167
▁та	-7.34762
▁человек	-7.3507
▁очень	-7.35095
вать	-7.35587
▁е	-7.35897
▁кон	-7.36224
ком	-7.36339
ним	-7.36827
гра	-7.37333
мен	-7.37573
ную	-7.37875
ев	-7.38322
...-	-7.38736
бе	-7.39043
▁де	-7.39456
лы	-7.39639
▁или	-7.39681
ают	-7.39723
ние	-7.40101
ги	-7.40222
▁пред	-7.40259
ых	-7.40308
▁друг	-7.40885
▁было	-7.40961
жд	-7.42732
▁их	-7.42754
▁сегодня	-7.42919
лась	-7.43183
тор	-7.44478
▁ба	-7.45925
▁ф	-7.45998
пу	-7.46169
▁пар	-7.46993
▁пос	-7.47122
ться	-7.47149
▁был	-7.47669
ным	-7.48167
ые	-7.4841
се	-7.49053
▁больше	-7.49179
▁э	-7.50045
ите	-7.50609
▁теперь	-7.50772
шел	-7.51111
▁время	-7.51369
ение	-7.5157
ел	-7.51881
от	-7.53369
их	-7.53611
ут	-7.54086
▁сам	-7.54149
▁б	-7.54336
ез	-7.54442
▁вчера	-7.5484
▁потому	-7.54842
ное	-7.54886
вы	-7.55051
вал	-7.55113
лись	-7.55168
ам	-7.55342
▁день	-7.55455
▁спрашивает	-7.55941
пе	-7.56598
ед	-7.57907
▁ему	-7.5825
▁ло	-7.58256
ство	-7.58695
▁бу	-7.58822
▁люб	-7.59031
сть	-7.5997
▁девушка	-7.60293
нов	-7.60327
▁кор	-7.61229
▁россии	-7.61301
нт	-7.61877
▁пока	-7.62533
прав	-7.62588
бу	-7.63066
▁даже	-7.6355
▁потом	-7.64669
▁х	-7.65128
▁ми	-7.65155
ды	-7.65183
▁сказал	-7.65361
▁час	-7.65462
ает	-7.65562
ец	-7.65599
▁стар	-7.65757
▁женщина	-7.6585
▁вид	-7.65882
ишь	-7.66001
▁себе	-7.66296
▁две	-7.66706
▁ле	-7.66728
▁мама	-7.66927
сс	-7.67104
▁лучше	-7.67107
▁ум	-7.67592
ха	-7.68065
▁себя	-7.6814
ым	-7.68252
дет	-7.68359
ном	-7.68436
▁оста	-7.68455
рос	-7.69553
сь	-7.69594
▁хорошо	-7.69812
▁пе	-7.70554
▁доктор	-7.70882
гр	-7.70922
▁рас	-7.71343
со	-7.71355
льно	-7.71676
▁боль	-7.72079
▁ничего	-7.72874
▁ку	-7.73261
ится	-7.73263
су	-7.74566
▁всегда	-7.74875
иться	-7.75304
▁какой	-7.76345
▁ваш	-7.7641
▁три	-7.76638
▁быть	-7.7698
жу	-7.77016
из	-7.77207
▁сейчас	-7.77479
ия	-7.77493
▁жизнь	-7.77583
ска	-7.77738
ум	-7.77773
лов	-7.77847
▁мой	-7.77885
ова	-7.78089
?!	-7.78107
или	-7.78564
чит	-7.78571
▁вер	-7.79165
▁му	-7.79464
▁жен	-7.79585
гу	-7.80033
дер	-7.8059
▁люди	-7.80747
э	-7.81474
▁перед	-7.81484
лен	-7.81521
▁чего	-7.81938
сы	-7.82164
нул	-7.82558
▁стран	-7.82771
▁ос	-7.82929
сп	-7.83022
▁сколько	-7.83072
аться	-7.83287
▁пре	-7.83344
▁штирлиц	-7.83842
▁него	-7.8403
▁ра	-7.84077
▁папа	-7.84603
▁жизни	-7.84674
хо	-7.8475
бра	-7.84875
цы	-7.85103
▁тем	-7.85218
▁деньги	-7.85767
мы	-7.8637
▁дома	-7.867
▁ду	-7.87233
▁тут	-7.87514
▁знаю	-7.88003
▁воз	-7.88033
▁че	-7.88256
нь	-7.88842
лет	-7.88888
▁тоже	-7.89202
▁чу	-7.8932
рь	-7.8967
нее	-7.89676
▁прос	-7.90068
▁чер	-7.90273
фи	-7.90448
бы	-7.90497
▁того	-7.90563
▁тогда	-7.90817
0	-7.90919
зы	-7.91184
ского	-7.91757
▁ди	-7.91862
▁зачем	-7.92157
▁ла	-7.92228
ивает	-7.92255
про	-7.9226
▁такой	-7.92484
▁ро	-7.92755
▁мужчина	-7.92818
▁ту	-7.93059
тер	-7.9341
▁прав	-7.93755
ний	-7.93918
▁значит	-7.94061
тро	-7.94108
вая	-7.94601
шь	-7.95125
▁приходит	-7.95303
ск	-7.95661
▁год	-7.96202
▁жив	-7.96497
шка	-7.96589
нибудь	-7.96601
▁сын	-7.96984
ывает	-7.97144
▁нужно	-7.97491
ик	-7.97605
ются	-7.97748
▁хо	-7.97784
▁га	-7.98535
вали	-7.98662
ол	-7.98672
ился	-7.98932
▁через	-7.99033
лось	-7.9917
ания	-7.99259
ья	-7.99694
▁ша	-8.00268
▁много	-8.00455
лад	-8.00698
▁кар	-8.01155
ции	-8.01184
ской	-8.01371
▁бр	-8.01537
▁наш	-8.0162
стве	-8.01681
ете	-8.01894
▁всех	-8.01958
▁никогда	-8.02013
▁них	-8.02274
▁буду	-8.02398
▁сер	-8.02606
ность	-8.02755
▁им	-8.03175
▁гор	-8.03209
▁домой	-8.03366
▁женщин	-8.03592
▁зап	-8.03666
ина	-8.04016
▁такое	-8.04041
▁рук	-8.04492
чу	-8.04819
▁сосед	-8.0499
▁эти	-8.05383
▁сто	-8.05453
ню	-8.05738
тся	-8.05829
нии	-8.06086
ней	-8.0619
▁женщины	-8.0637
▁всего	-8.06639
вар	-8.06865
чно	-8.07096
▁1	-8.07241
▁дела	-8.07353
ень	-8.07533
енно	-8.07663
▁который	-8.07735
шу	-8.07843
▁бес	-8.08171
▁кот	-8.08305
▁мир	-8.08644
▁ге	-8.09198
ись	-8.09356
очка	-8.09383
▁моя	-8.09806
▁одна	-8.10094
▁хочу	-8.10186
пер	-8.10194
▁конечно	-8.11231
ский	-8.11427
▁ведь	-8.11471
жен	-8.11548
▁бер	-8.11654
ое	-8.11872
раз	-8.11923
ге	-8.12027
▁могу	-8.12063
оз	-8.12168
▁школ	-8.12247
нуть	-8.12316
ская	-8.12496
▁тра	-8.12592
▁ста	-8.12671
▁кур	-8.12964
▁бел	-8.13774
▁хотел	-8.13982
тов	-8.14034
▁была	-8.14065
юсь	-8.14537
▁баб	-8.1498
▁тот	-8.15053
▁дев	-8.15148
▁вопрос	-8.1607
ость	-8.16363
▁ска	-8.16468
ист	-8.16491
▁врач	-8.165
▁собак	-8.16661
▁свет	-8.16776
▁нам	-8.17052
▁путин	-8.17377
ек	-8.1742
▁пер	-8.17442
▁цел	-8.18402
▁ин	-8.18677
▁мам	-8.18688
ался	-8.18899
вой	-8.18997
▁кол	-8.19365
зи	-8.19391
▁суд	-8.19637
▁ей	-8.19769
ятся	-8.203
▁фи	-8.20418
▁которые	-8.20743
ском	-8.20762
вид	-8.20825
▁спи	-8.21001
пал	-8.2123
▁крас	-8.21299
йте	-8.21324
▁мальчик	-8.21626
▁рад	-8.21711
▁ру	-8.21745
ства	-8.21821
бор	-8.22547
▁том	-8.22549
▁одно	-8.22738
шки	-8.22895
ран	-8.232
▁куда	-8.23213
▁мор	-8.23441
▁магазин	-8.24071
▁2	-8.24893
ически	-8.25398
▁вообще	-8.25485
клю	-8.25546
▁стоит	-8.257
▁красив	-8.25744
▁хорош	-8.25965
▁пят	-8.26034
▁молод	-8.26186
▁мужчин	-8.2629
▁своей	-8.26336
▁новый	-8.2642
ила	-8.265
▁кого	-8.26613
чка	-8.26734
▁работа	-8.27257
ается	-8.27307
дал	-8.27332
▁людей	-8.27343
ками	-8.27406
ром	-8.27563
▁расс	-8.28
▁сразу	-8.28128
▁решил	-8.2826
▁каждый	-8.28459
?!-	-8.28537
▁говорят	-8.28632
ности	-8.29385
ция	-8.29416
род	-8.29479
▁зад	-8.29511
чь	-8.2971
ника	-8.29712
ывать	-8.3004
нд	-8.30048
нять	-8.30821
▁машин	-8.30944
▁делать	-8.31029
▁гол	-8.31201
ложи	-8.31793
нос	-8.32357
▁начал	-8.32372
ница	-8.32486
ские	-8.33247
▁тре	-8.33364
▁какая	-8.33542
▁работу	-8.33772
дает	-8.34099
цию	-8.34295
▁семь	-8.34307
нут	-8.34384
▁телефон	-8.35149
▁человека	-8.35673
▁знаешь	-8.35702
цу	-8.35859
▁дом	-8.36015
▁свою	-8.36668
▁стра	-8.36698
ских	-8.36761
▁дорогой	-8.36819
▁стал	-8.37397
▁оп	-8.37566
бил	-8.38021
▁бро	-8.38041
тре	-8.38294
▁плохо	-8.38375
ъ	-8.38672
▁роди	-8.38756
▁понял	-8.38973
▁этом	-8.3919
▁обо	-8.39345
▁рус	-8.39485
▁тех	-8.39504
▁бл	-8.39611
▁готов	-8.39873
▁бор	-8.39923
ках	-8.40561
хи	-8.4064
кс	-8.40643
▁купил	-8.40881
кон	-8.40893
▁квартир	-8.40935
тра	-8.41588
том	-8.41732
овой	-8.41761
▁денег	-8.41819
▁давай	-8.42025
▁куп	-8.42369
▁президент	-8.42411
▁всю	-8.42697
ски	-8.4299
ными	-8.43103
▁сред	-8.43119
аются	-8.43122
▁мар	-8.4338
нет	-8.4342
▁выход	-8.43655
▁пап	-8.43703
тив	-8.43824
кий	-8.43882
▁рыб	-8.4391
▁этого	-8.44252
кор	-8.44257
гла	-8.44304
зд	-8.44329
ехал	-8.44348
▁мог	-8.44443
нный	-8.44475
▁ю	-8.44714
▁нос	-8.44939
еть	-8.44954
айте	-8.45184
▁видел	-8.45379
▁между	-8.45741
нем	-8.45804
чик	-8.45818
▁дети	-8.46173
▁долго	-8.46196
▁укра	-8.46265
рать	-8.46399
ление	-8.46602
вор	-8.46603
▁пл	-8.46629
▁народ	-8.46815
▁этот	-8.46875
ять	-8.4748
ью	-8.47487
▁полу	-8.47551
▁стол	-8.47579
ешься	-8.4799
▁идет	-8.48222
▁раньше	-8.48334
▁такая	-8.48498
ники	-8.48782
пор	-8.48867
▁мужчины	-8.48878
чку	-8.48925
ости	-8.48962
бер	-8.49061
▁ти	-8.49387
▁были	-8.49431
▁сынок	-8.49896
▁след	-8.4995
пре	-8.50122
▁дорогая	-8.50353
▁никак	-8.51109
дела	-8.51396
она	-8.51476
сил	-8.51596
шку	-8.51783
▁никто	-8.51886
▁завтра	-8.5198
▁опять	-8.52005
▁года	-8.52084
▁хочешь	-8.52744
▁глаза	-8.52763
▁закон	-8.52947
▁какие	-8.52947
▁вовочка	-8.52975
при	-8.53046
стра	-8.53084
ваю	-8.53184
▁пове	-8.53373
ваться	-8.53392
оро	-8.54111
▁город	-8.54479
инг	-8.55064
▁будут	-8.55444
▁против	-8.55592
▁минут	-8.55792
▁мои	-8.55895
очки	-8.56036
▁знаете	-8.56623
ывают	-8.56628
▁здоров	-8.56668
▁интернет	-8.57702
▁равно	-8.57822
▁бар	-8.5792
очку	-8.5814
▁вдруг	-8.58631
▁здесь	-8.58748
▁утром	-8.5877
дите	-8.58884
ман	-8.59155
чки	-8.59768
▁месяц	-8.59842
▁гла	-8.60011
▁своего	-8.60122
чат	-8.60332
▁мужа	-8.6113
ось	-8.61162
▁пожалуйста	-8.6123
▁собира	-8.61362
▁туалет	-8.61474
кро	-8.61847
▁скоро	-8.61975
▁рассказ	-8.62015
вести	-8.62087
▁дерев	-8.62266
▁би	-8.62431
ден	-8.62468
▁газ	-8.62601
обр	-8.62618
▁поэтому	-8.62798
▁хоть	-8.63064
▁ним	-8.63255
ях	-8.63802
▁свой	-8.63976
▁хотя	-8.64008
▁цен	-8.64068
▁получи	-8.64091
▁всем	-8.64097
▁20	-8.64196
▁нельзя	-8.64268
▁взял	-8.64489
нимает	-8.64898
▁весь	-8.64901
▁ночь	-8.64913
▁подходит	-8.65036
▁гу	-8.65205
▁другой	-8.65538
▁встреч	-8.65615
▁девушки	-8.65635
▁цвет	-8.65635
▁люблю	-8.65723
▁двух	-8.65885
▁слова	-8.66164
▁сделал	-8.66294
▁жить	-8.6653
▁совсем	-8.6664
▁такие	-8.66747
▁пять	-8.66778
▁первый	-8.66894
▁само	-8.66993
▁комп	-8.67207
телей	-8.67386
▁должен	-8.67403
▁фа	-8.67906
▁скажите	-8.6795
▁пьян	-8.67991
▁бутыл	-8.68171
▁язык	-8.68236
ления	-8.68258
▁сказать	-8.68298
▁моей	-8.68398
▁мол	-8.68565
вай	-8.68923
▁спор	-8.69016
▁эта	-8.691
▁свои	-8.69133
2	-8.69156
▁футбол	-8.69199
▁недо	-8.69201
теля	-8.6922
мент	-8.6924
ительно	-8.69396
чный	-8.69439
пил	-8.69456
▁голос	-8.69603
▁жены	-8.69682
▁дело	-8.70052
▁подруг	-8.70078
▁зарплат	-8.70111
чить	-8.70322
▁детей	-8.71045
дь	-8.71142
▁смотрит	-8.713
овать	-8.71328
▁пить	-8.71453
▁сад	-8.71489
пус	-8.71625
▁твое	-8.71637
▁подумал	-8.71697
▁стан	-8.7176
щего	-8.7178
▁помог	-8.71786
▁тро	-8.72011
▁своим	-8.72137
нят	-8.72155
▁ха	-8.7226
▁знает	-8.72285
▁будешь	-8.7263
▁замуж	-8.72692
▁сторон	-8.72831
▁мало	-8.72953
ству	-8.72963
▁свое	-8.72977
ницу	-8.73045
▁дед	-8.73199
▁место	-8.73976
▁жене	-8.74033
▁сидит	-8.74055
5	-8.74362
▁руки	-8.74639
▁тер	-8.74645
вание	-8.74839
▁думаю	-8.75011
▁дверь	-8.75197
ское	-8.75277
▁наши	-8.75454
▁разве	-8.75487
▁ответ	-8.75589
▁правда	-8.75754
илась	-8.7581
▁сначала	-8.759
▁ног	-8.76267
▁вечер	-8.76316
▁сделать	-8.76461
▁утра	-8.76514
▁дел	-8.76527
▁гос	-8.76565
▁обще	-8.76574
▁бог	-8.76594
▁бед	-8.76786
смотр	-8.76934
скую	-8.76956
▁работы	-8.77436
▁вес	-8.7747
ников	-8.77597
пит	-8.77687
▁авто	-8.77841
▁живот	-8.77874
▁интересно	-8.77975
▁пришел	-8.78059
ации	-8.78098
нная	-8.78549
▁доб	-8.78685
▁дня	-8.78707
нных	-8.78929
▁зуб	-8.79046
рез	-8.79084
ович	-8.79149
▁тобой	-8.79153
рел	-8.79205
▁любим	-8.79327
стер	-8.79457
▁слыш	-8.79553
▁банк	-8.79818
▁спать	-8.80381
▁род	-8.80572
▁шо	-8.80697
▁тысяч	-8.80796
▁мед	-8.80892
▁парень	-8.81014
ыми	-8.81036
▁могут	-8.81059
жать	-8.81488
▁любит	-8.81642
▁лес	-8.81643
ивают	-8.81684
▁хочется	-8.8191
▁кажется	-8.82047
вший	-8.82145
▁одного	-8.82317
▁объ	-8.82395
▁мужу	-8.82424
▁женой	-8.82578
▁ночью	-8.82619
▁самое	-8.82752
▁жену	-8.82981
▁лен	-8.83021
▁одной	-8.83038
▁пиво	-8.83181
▁гре	-8.83369
стан	-8.83497
▁верну	-8.84086
▁улице	-8.84219
шиб	-8.84242
▁фор	-8.84477
меня	-8.84531
ились	-8.84681
▁наконец	-8.84886
▁пыта	-8.85051
▁знаком	-8.85135
▁мин	-8.85153
ницы	-8.85522
▁отец	-8.85554
пут	-8.8562
щей	-8.85877
▁класс	-8.85959
▁точно	-8.8605
▁бабу	-8.86306
▁чувств	-8.86511
▁стр	-8.87016
енный	-8.87113
кре	-8.87265
чин	-8.8732
нием	-8.87374
▁брат	-8.87417
▁делает	-8.87419
▁умер	-8.87502
▁зим	-8.87525
▁план	-8.87613
▁фильм	-8.87672
▁10	-8.87937
▁совет	-8.87947
▁второй	-8.88292
▁кури	-8.88333
▁способ	-8.88435
▁слово	-8.88545
ении	-8.88572
▁похож	-8.88594
▁выбор	-8.88639
▁возраст	-8.88772
▁стать	-8.88836
▁рублей	-8.88908
1	-8.89404
▁медвед	-8.8971
▁откуда	-8.89875
▁трус	-8.90023
▁объявление	-8.90341
ставить	-8.90469
▁твой	-8.90852
▁думал	-8.90891
цев	-8.9098
▁смотри	-8.90984
▁кос	-8.91112
▁компьютер	-8.91142
▁голову	-8.91147
▁любовь	-8.91325
олог	-8.92002
▁дурак	-8.9211
▁труд	-8.92326
▁постоянно	-8.92441
▁своих	-8.9251
▁телевизор	-8.92605
йтесь	-8.92943
▁мат	-8.93067
▁хочет	-8.93158
▁иногда	-8.93593
▁мозг	-8.93694
▁собой	-8.93785
▁интерес	-8.93788
▁проблем	-8.93822
▁самый	-8.93844
ному	-8.94228
ивается	-8.94322
▁евро	-8.94441
▁бег	-8.94841
щий	-8.9492
▁быстро	-8.94932
▁водки	-8.94944
▁давно	-8.94987
гуля	-8.95007
▁студент	-8.95093
вяз	-8.95425
жает	-8.95497
▁лег	-8.95591
▁видит	-8.95778
▁тв	-8.95869
▁гру	-8.95931
▁говорил	-8.96006
▁одни	-8.96225
▁работе	-8.96277
▁помни	-8.96278
воз	-8.96344
енные	-8.96519
▁скажи	-8.96545
нным	-8.96877
▁которая	-8.97129
▁вечером	-8.97152
▁мной	-8.97213
▁ой	-8.97449
ктор	-8.97451
▁нового	-8.97667
▁пес	-8.97715
▁созда	-8.97723
▁начинает	-8.97724
▁понимаю	-8.97729
▁плат	-8.97749
▁5	-8.97975
▁слышал	-8.97999
▁иван	-8.98184
▁побед	-8.98193
▁девочка	-8.98234
▁заходит	-8.98384
изм	-8.98417
▁теле	-8.98418
ирован	-8.98483
▁меньше	-8.98509
хожу	-8.98529
▁миллион	-8.99032
▁знал	-8.99056
▁шест	-8.9934
▁америка	-8.99379
▁ваши	-8.99805
▁глуп	-8.99961
▁русский	-9.00142
ировать	-9.00311
▁чист	-9.00357
▁опер	-9.00594
▁элект	-9.00619
▁вкус	-9.00689
▁образ	-9.00784
▁лишь	-9.01137
▁рядом	-9.0115
▁одну	-9.01167
▁главное	-9.01329
▁двор	-9.01477
таки	-9.01833
▁смог	-9.01876
▁назад	-9.01931
▁машину	-9.0195
▁столько	-9.02048
▁ноги	-9.02251
▁богат	-9.02354
ывал	-9.02377
▁наверное	-9.02407
▁друзья	-9.02769
▁счастлив	-9.02769
▁кому	-9.02844
▁работает	-9.03014
▁твоя	-9.03135
▁думает	-9.03146
▁член	-9.03513
▁чай	-9.03561
▁книг	-9.03571
▁бан	-9.0393
вания	-9.04031
▁молодой	-9.04273
▁существ	-9.04601
муж	-9.04721
▁мя	-9.04998
ицей	-9.05052
▁блин	-9.05067
▁прямо	-9.05341
дель	-9.05374
▁потеря	-9.05407
альный	-9.05446
▁кофе	-9.05555
▁сильно	-9.05778
итесь	-9.05814
▁соглас	-9.05904
льных	-9.06361
▁хр	-9.06366
десят	-9.06374
▁твои	-9.06499
▁автобус	-9.06653
▁комнат	-9.06661
ским	-9.06829
▁купить	-9.06836
▁мечта	-9.06846
▁лицо	-9.06901
▁рез	-9.07111
▁привет	-9.07114
▁глаз	-9.07466
▁руб	-9.07512
▁эконом	-9.07789
ясь	-9.07973
▁четыре	-9.07979
▁встрети	-9.07981
▁начальник	-9.07982
▁суп	-9.08314
▁говорить	-9.08402
▁бабушка	-9.08599
▁алло	-9.08721
▁разговор	-9.08747
▁работать	-9.08855
▁хрен	-9.08859
▁фе	-9.09066
▁туда	-9.09335
▁вместе	-9.09519
▁экс	-9.09561
▁правильно	-9.09719
00	-9.0993
▁увидел	-9.09938
▁принес	-9.09975
▁дура	-9.10028
▁пошл	-9.10176
▁году	-9.10217
▁нравится	-9.10525
▁женщину	-9.1055
▁слишком	-9.10886
▁возможно	-9.10886
щая	-9.10919
▁пуст	-9.10942
▁плох	-9.11029
▁обычно	-9.11086
ющий	-9.11542
▁спасибо	-9.12074
▁можешь	-9.12077
▁россия	-9.12125
▁несколько	-9.12272
▁депутат	-9.12672
▁холод	-9.12688
енька	-9.12693
▁постели	-9.12881
▁более	-9.13034
▁расп	-9.13171
▁граждан	-9.13274
▁смысл	-9.13682
ация	-9.1384
▁волос	-9.14353
▁найти	-9.14404
▁бывает	-9.14882
▁товарищ	-9.14899
▁слушай	-9.15104
▁настолько	-9.15309
▁двое	-9.15339
▁забыл	-9.15593
▁правил	-9.15688
▁китай	-9.15722
есси	-9.15742
▁стали	-9.15981
ологи	-9.15998
▁немного	-9.15999
▁владимир	-9.16135
▁спрашивают	-9.16136
▁нашей	-9.16183
▁ресторан	-9.16342
▁еврей	-9.16342
▁стен	-9.1638
▁ужас	-9.16748
▁научи	-9.16785
▁секрет	-9.1697
▁узнал	-9.16985
▁легко	-9.16986
дорож	-9.17065
▁именно	-9.17115
▁рождения	-9.17177
▁какое	-9.1737
▁рож	-9.17581
▁реклам	-9.17597
ишься	-9.17723
▁пациент	-9.17807
▁звонит	-9.17825
прашива	-9.18019
чная	-9.18114
▁момент	-9.18412
▁звон	-9.18417
▁россиян	-9.18599
▁вместо	-9.18653
▁мать	-9.18659
▁раб	-9.18816
▁хотите	-9.18869
▁попал	-9.18883
▁будем	-9.19092
▁петр	-9.19115
исты	-9.19216
▁часто	-9.19333
▁мюллер	-9.19722
▁отвечает	-9.19722
▁лежа	-9.19844
енько	-9.19963
▁чиновник	-9.20585
▁голуб	-9.20836
▁пусть	-9.20838
▁самолет	-9.20909
▁удар	-9.20948
▁яйца	-9.21049
▁пью	-9.21151
▁сидят	-9.21165
▁детстве	-9.22118
▁посмотри	-9.22526
▁100	-9.22745
▁позна	-9.22921
ировал	-9.22991
етесь	-9.23078
▁гости	-9.23091
работа	-9.23711
▁пьяный	-9.23842
ющих	-9.23854
▁самом	-9.23925
▁времени	-9.24055
▁государств	-9.24338
▁опыт	-9.24486
▁страшно	-9.24628
▁круг	-9.24791
▁рот	-9.24858
▁мимо	-9.25
▁особенно	-9.25015
▁тяжел	-9.25034
▁открыт	-9.2526
▁выходит	-9.25316
ывается	-9.25348
▁холодильник	-9.25469
▁родители	-9.25473
▁проблемы	-9.25838
▁милый	-9.2593
▁либо	-9.26019
▁смотреть	-9.26384
▁спас	-9.26385
пред	-9.26418
▁случайно	-9.26632
▁идиот	-9.2686
▁думаешь	-9.27075
▁жил	-9.27139
▁эту	-9.27259
▁маленький	-9.27306
▁леч	-9.27592
▁свин	-9.27804
▁мороз	-9.27934
▁посту	-9.28265
▁матери	-9.28514
▁вис	-9.28629
▁неделю	-9.28725
▁метро	-9.29279
▁другому	-9.29908
▁урок	-9.29965
▁хлеб	-9.304
▁звонок	-9.30488
▁карман	-9.30734
▁презерватив	-9.30844
▁девушку	-9.30845
▁давайте	-9.30906
▁объясни	-9.31085
▁водку	-9.31111
▁кредит	-9.31328
▁голове	-9.31342
▁вещи	-9.31359
▁состоя	-9.31568
▁например	-9.31809
▁которой	-9.31812
▁отпуск	-9.31876
опыт	-9.3188
очке	-9.3191
▁которого	-9.32053
▁кричит	-9.32056
▁треть	-9.32322
▁спросил	-9.32477
▁ребенка	-9.32784
нский	-9.33156
▁самая	-9.33394
▁крут	-9.33719
▁блондинка	-9.33768
▁пример	-9.33833
▁месте	-9.34072
▁результат	-9.34263
▁говори	-9.34312
▁говорю	-9.35262
▁велик	-9.35437
▁директор	-9.35513
▁нужен	-9.3555
▁трех	-9.3567
бежал	-9.35791
ющие	-9.35903
ирует	-9.35982
▁начинаю	-9.36168
▁голова	-9.36171
▁отказ	-9.36368
▁продав	-9.36504
▁должна	-9.36525
▁недавно	-9.36525
министр	-9.36529
▁50	-9.36532
▁получил	-9.36619
▁обид	-9.36897
▁считает	-9.3691
▁обед	-9.37066
▁уверен	-9.37295
▁прошло	-9.37328
▁другие	-9.37391
здрав	-9.37451
▁провод	-9.37467
▁номер	-9.37876
▁стрел	-9.37906
▁обязательно	-9.38061
▁надпись	-9.38061
▁вижу	-9.38161
▁дочь	-9.38214
▁погод	-9.38328
групп	-9.384
▁нормально	-9.38579
▁фотограф	-9.3858
▁однажды	-9.3858
▁иванов	-9.38599
аюсь	-9.38752
▁экзамен	-9.38838
▁брак	-9.39225
▁встречаются	-9.39407
▁налог	-9.397
▁счет	-9.39711
▁улиц	-9.4
▁большой	-9.4015
▁тю	-9.40227
▁дороги	-9.40414
▁трудно	-9.40604
▁теща	-9.407
▁которых	-9.40942
▁обратно	-9.40942
▁времен	-9.41039
▁причин	-9.41099
▁волн	-9.41225
▁еду	-9.41226
▁держи	-9.41273
▁роз	-9.41443
▁молча	-9.41609
▁извините	-9.41741
▁называется	-9.41747
▁десять	-9.41751
очек	-9.41758
▁добро	-9.42179
▁случае	-9.42288
▁моего	-9.42315
▁девушке	-9.42547
▁счастье	-9.42548
▁должно	-9.42555
▁толст	-9.42615
▁диван	-9.42642
▁отдел	-9.42731
▁ходить	-9.42756
▁понимаешь	-9.42818
▁будто	-9.42829
▁абрам	-9.43159
▁самые	-9.43245
▁запрет	-9.4349
▁ученые	-9.43657
▁долг	-9.43666
▁15	-9.43696
▁поезд	-9.43792
▁завод	-9.4388
▁руга	-9.4391
▁охот	-9.44032
▁официант	-9.4418
▁девушкой	-9.44455
▁зеркал	-9.44735
бегает	-9.44867
▁рабинович	-9.45007
▁вашей	-9.4505
▁других	-9.45162
▁четвер	-9.45284
прыг	-9.45421
▁нрав	-9.4552
▁ребенок	-9.45561
▁заказ	-9.45735
▁зол	-9.45915
▁праздник	-9.46119
вшись	-9.46484
▁снова	-9.46725
▁букв	-9.46725
▁развод	-9.46913
▁ладно	-9.46984
▁сходи	-9.47053
▁сигарет	-9.47244
▁хватает	-9.47244
▁смотрю	-9.4755
▁оказывается	-9.47812
▁труб	-9.47817
▁спроси	-9.47921
▁кабинет	-9.48383
▁друж	-9.48434
▁чувство	-9.48513
строй	-9.49142
▁любят	-9.49182
▁должны	-9.49244
▁новости	-9.49255
фер	-9.49381
▁жар	-9.49798
▁лежит	-9.49839
▁благо	-9.4984
▁учитель	-9.50396
▁плач	-9.50424
▁здравствуйте	-9.50698
▁российско	-9.50698
▁случилось	-9.50698
альная	-9.50769
▁почти	-9.50791
▁долларов	-9.50994
▁организ	-9.51105
▁новую	-9.51314
▁взять	-9.51608
▁политик	-9.51618
строил	-9.51656
▁ходил	-9.51963
открыв	-9.52484
▁кроме	-9.52493
▁помню	-9.52503
▁грудь	-9.52514
альные	-9.52609
▁семей	-9.52814
▁идут	-9.52967
▁коронавирус	-9.53068
▁хватит	-9.53069
▁позвони	-9.53069
▁программ	-9.53329
▁третий	-9.53372
▁хороший	-9.53388
▁стакан	-9.53468
▁снег	-9.53473
▁делают	-9.5366
▁бизнес	-9.5367
▁москве	-9.53671
▁отдыха	-9.5398
▁дальше	-9.53985
▁отношения	-9.54275
▁жир	-9.54426
▁своему	-9.54515
▁шут	-9.54553
▁мусор	-9.54932
▁ответил	-9.55005
▁пакет	-9.55017
▁открыл	-9.55057
▁окно	-9.55154
▁поздно	-9.55199
▁любишь	-9.55209
▁действительно	-9.55512
▁рис	-9.55577
▁пришла	-9.55623
▁отличается	-9.55804
▁закончил	-9.56034
▁лично	-9.56124
▁котором	-9.56125
▁придется	-9.56139
▁весел	-9.56319
▁тя	-9.56323
▁зелен	-9.56478
▁трамп	-9.56563
▁понрави	-9.56735
▁заметил	-9.56737
▁имеет	-9.56738
▁смотрел	-9.56742
▁новые	-9.56778
▁креп	-9.56899
▁гораздо	-9.57045
▁назвал	-9.57282
▁акт	-9.57514
фон	-9.57645
▁вокруг	-9.57671
▁зовут	-9.57673
▁первого	-9.57674
сторож	-9.57742
▁русские	-9.5776
▁норм	-9.57954
▁производ	-9.58301
▁получается	-9.58301
▁голод	-9.58426
▁слаб	-9.58585
▁правительство	-9.58617
▁разговаривают	-9.58617
▁опас	-9.58891
▁первым	-9.58951
▁сэр	-9.5902
▁становится	-9.59253
▁фото	-9.59277
▁солдат	-9.59576
▁связи	-9.59642
блюда	-9.59678
▁случай	-9.59867
▁вперед	-9.59907
▁хорошая	-9.59951
▁играть	-9.60003
▁гряз	-9.60223
▁заявил	-9.6026
▁быстрее	-9.60537
▁настоящий	-9.60861
▁клуб	-9.61679
▁пляж	-9.61728
▁считаю	-9.61768
▁стоят	-9.61804
▁держа	-9.61837
▁размер	-9.61913
▁сотрудник	-9.62166
▁пойду	-9.62264
▁подъезд	-9.62495
▁колбас	-9.62518
▁шуб	-9.62519
▁выпуск	-9.62937
▁иметь	-9.63336
▁невест	-9.63446
▁пассажир	-9.63488
▁возьми	-9.63495
▁удалось	-9.635
евич	-9.63636
▁попросил	-9.63834
▁водка	-9.63871
▁людям	-9.64156
▁называют	-9.6417
▁действ	-9.64186
▁дыр	-9.64231
▁центр	-9.64291
▁нужны	-9.64348
▁люся	-9.64514
▁украине	-9.64514
▁слон	-9.64553
▁вроде	-9.64663
▁крем	-9.64855
ставляет	-9.64868
▁анти	-9.6488
▁кино	-9.64998
▁ходит	-9.65035
▁гаишник	-9.65166
▁петрович	-9.65191
▁пьет	-9.65219
▁длинн	-9.65231
▁окна	-9.6531
авляю	-9.65479
▁которую	-9.65506
▁знать	-9.65527
▁командир	-9.65618
▁роман	-9.65666
▁нерв	-9.65679
▁билет	-9.65711
▁вспомни	-9.65845
▁звезд	-9.65846
▁мясо	-9.65992
ворот	-9.66099
▁помощь	-9.66187
вшие	-9.66393
▁нашего	-9.66599
▁волк	-9.66743
▁поставил	-9.6688
▁ужин	-9.66883
▁тихо	-9.67061
▁друзей	-9.67217
▁пожар	-9.67737
▁спокойно	-9.67912
▁клиент	-9.67913
▁посмотрел	-9.67915
▁требует	-9.6796
▁прекрасно	-9.68259
▁узнать	-9.6826
▁сердце	-9.68261
▁горяч	-9.68383
▁достаточно	-9.68609
▁учительница	-9.68638
▁плав	-9.68705
▁останови	-9.688
▁сидоров	-9.6896
▁дорогу	-9.68962
▁подарил	-9.69001
▁программист	-9.69007
▁власти	-9.6905
▁современн	-9.69312
▁кухне	-9.69316
▁повод	-9.69966
▁воспита	-9.70027
▁систем	-9.70042
▁предложил	-9.70075
▁пришлось	-9.7038
▁продукт	-9.7038
▁вред	-9.70589
▁открывает	-9.70786
▁собрал	-9.71214
▁многие	-9.71451
▁реально	-9.71471
▁враг	-9.71797
▁очередь	-9.71812
▁довер	-9.72154
▁следующий	-9.72174
▁показал	-9.72228
▁армии	-9.72539
▁принц	-9.72916
▁представляешь	-9.73269
▁пишет	-9.73284
▁профессор	-9.73637
▁болезн	-9.7364
▁любовник	-9.73665
▁смеш	-9.73677
вших	-9.73903
вшая	-9.73952
▁оказалось	-9.74006
▁свадьбы	-9.74006
▁журнал	-9.74006
▁простите	-9.74065
▁срочно	-9.74387
▁повтор	-9.74449
вшего	-9.74514
▁умею	-9.74625
▁анекдот	-9.74748
▁написал	-9.75123
▁обращ	-9.75155
▁лифт	-9.75735
▁придумал	-9.75875
▁грустн	-9.75888
▁бесплатно	-9.76249
▁болит	-9.76317
▁пришли	-9.76329
▁команд	-9.76552
▁хозяин	-9.76628
▁умеет	-9.77136
▁жалуется	-9.77389
▁обезьян	-9.77389
▁похорон	-9.77391
▁строит	-9.77402
▁съел	-9.77405
ической	-9.7753
▁подарок	-9.77774
▁твою	-9.77777
▁поймал	-9.77797
▁закрыт	-9.77853
▁успел	-9.78575
моему	-9.78631
▁дедушка	-9.78932
▁пользу	-9.78932
▁встав	-9.7924
▁автомобиль	-9.7971
платить	-9.79848
▁завис	-9.8008
▁маленькая	-9.80103
▁написано	-9.80103
▁попробуй	-9.80103
▁маршрут	-9.80496
▁психиатр	-9.80497
▁конфет	-9.80503
▁привыч	-9.80613
▁псих	-9.80648
▁перестал	-9.80665
▁миллиард	-9.80892
▁запомни	-9.81296
▁честно	-9.81505
йдешь	-9.81522
▁россию	-9.81687
▁принцип	-9.81732
▁коньяк	-9.81737
▁вышла	-9.81786
▁стира	-9.81924
▁водитель	-9.82092
▁шкаф	-9.82102
▁танк	-9.8227
▁обращается	-9.82518
▁устал	-9.8253
▁приятно	-9.82787
▁берег	-9.83203
▁взгляд	-9.83297
▁посмотреть	-9.83704
▁первом	-9.83745
▁сидел	-9.84256
▁пельмен	-9.84528
▁понятно	-9.84547
▁нужна	-9.84566
▁шеф	-9.84576
▁одновременно	-9.84933
▁таракан	-9.84936
▁генерал	-9.84982
▁лучший	-9.85346
блонди	-9.8545
▁достал	-9.85537
▁театр	-9.85928
▁возвращается	-9.86177
▁ремонт	-9.86179
▁которым	-9.86185
▁вашего	-9.86205
▁крик	-9.8655
▁зоопарк	-9.86596
▁унитаз	-9.86598
▁последний	-9.86599
▁олимп	-9.86621
▁имею	-9.86904
▁наркоман	-9.87017
▁остальные	-9.87443
▁никого	-9.87464
▁смерти	-9.87862
▁доллар	-9.87869
▁кризис	-9.88287
▁граб	-9.88594
▁алкоголь	-9.88715
▁автомат	-9.88734
культур	-9.88738
▁желание	-9.88739
▁собственно	-9.89144
▁понедельник	-9.89144
▁преступ	-9.89144
▁скорее	-9.89146
▁громко	-9.89149
▁офис	-9.89225
▁каждого	-9.89576
▁которое	-9.89577
▁человеч	-9.89635
▁гриб	-9.89712
▁уходит	-9.89865
▁ничто	-9.90022
▁милая	-9.90031
▁считать	-9.90359
▁девушек	-9.90442
▁некоторые	-9.90442
▁пенсионер	-9.90442
▁парашют	-9.90443
казывают	-9.90796
▁удивит	-9.91006
▁психолог	-9.91206
▁платье	-9.91348
▁коллег	-9.9141
▁спирт	-9.91512
▁демократ	-9.91758
▁невозможно	-9.91758
▁настроение	-9.91759
▁дороге	-9.91761
▁жопу	-9.91762
▁мадам	-9.92247
▁канал	-9.92408
ответ	-9.92513
▁заканчива	-9.92645
▁очереди	-9.93092
▁паспорт	-9.93092
▁ребята	-9.93092
▁сзади	-9.93142
▁появля	-9.93541
▁турист	-9.93581
▁наоборот	-9.93991
▁думать	-9.94006
▁трезв	-9.94084
▁удовольствие	-9.94443
▁килограмм	-9.94443
▁отлично	-9.94456
▁секунд	-9.94898
▁блондинки	-9.95354
▁конституци	-9.95354
▁украины	-9.9536
▁фигур	-9.95385
▁глядя	-9.95813
▁первое	-9.95829
▁охран	-9.95833
▁смотрят	-9.9584
▁лекарств	-9.96275
▁испыт	-9.96277
▁ракет	-9.96431
▁внимание	-9.96737
▁яблок	-9.96764
▁орган	-9.97031
▁абсолютно	-9.97202
▁козл	-9.97361
▁отключ	-9.97389
▁собач	-9.97888
▁знак	-9.98053
▁гинеколог	-9.98139
▁сложно	-9.98154
▁комар	-9.98304
▁звер	-9.98441
▁зарабатыва	-9.9861
▁искусств	-9.9861
безопас	-9.98616
▁цирк	-9.98621
▁новых	-9.98646
▁малыш	-9.98668
▁факт	-9.98798
ируют	-9.98834
▁птиц	-9.98985
▁последнее	-9.99088
▁воздух	-9.99098
▁обещал	-9.99561
▁неужели	-9.99562
▁российские	-10.0004
▁француз	-10.0004
▁шоколад	-10.0004
▁сломал	-10.004
▁штук	-10.0043
▁айфон	-10.0053
▁грузин	-10.0053
▁джо	-10.0065
▁покупать	-10.01
▁забыв	-10.0141
▁характер	-10.0149
▁хирург	-10.0149
▁известно	-10.0149
▁количество	-10.0198
▁российских	-10.0198
▁лошадь	-10.0198
▁большая	-10.0198
▁ключ	-10.0212
▁коммун	-10.025
▁земле	-10.0251
▁выглядит	-10.0296
▁стекл	-10.0311
▁тормоз	-10.0345
▁читать	-10.0348
русски	-10.0406
▁институт	-10.0445
▁фраза	-10.0447
▁воскрес	-10.0495
▁костюм	-10.0495
▁печень	-10.0496
▁золото	-10.0498
▁движ	-10.0501
▁доченька	-10.0546
▁вирус	-10.0548
▁картин	-10.0567
▁смерть	-10.0597
▁каждой	-10.0597
▁первые	-10.0597
ступает	-10.065
▁пацан	-10.0663
▁сидя	-10.0666
▁страшны	-10.0676
▁велосипед	-10.0699
▁математик	-10.0699
▁бензин	-10.0699
▁является	-10.0699
▁молоко	-10.0721
▁наркотик	-10.0751
▁чукча	-10.0751
▁никому	-10.0752
▁прежде	-10.0752
▁хвост	-10.0755
▁диплом	-10.0802
▁компании	-10.0803
▁сидеть	-10.0803
▁звук	-10.0804
▁каждом	-10.0855
▁скрип	-10.0856
▁читает	-10.0862
▁стоматолог	-10.0907
▁дядя	-10.0907
▁совесть	-10.0907
▁музыка	-10.0907
▁жалко	-10.0907
▁пробовал	-10.0916
▁сможет	-10.096
▁представь	-10.1012
▁успешн	-10.1012
▁восемь	-10.1066
▁сохран	-10.1067
▁утвержда	-10.1119
▁эффект	-10.1119
▁будильник	-10.1119
▁предлагаю	-10.1119
▁поговори	-10.112
▁сахар	-10.1124
▁важно	-10.113
▁кровати	-10.1173
▁карантин	-10.1173
украински	-10.1199
▁приходил	-10.1226
▁поручик	-10.1228
▁пишут	-10.1228
▁хитр	-10.1272
▁счастья	-10.1281
▁работник	-10.1281
▁грамм	-10.1282
▁жопа	-10.1282
▁василий	-10.1337
▁читал	-10.1343
▁конкурс	-10.1391
▁высоко	-10.1413
▁контрол	-10.1426
▁крокодил	-10.1446
▁отсутствие	-10.1446
▁российский	-10.1446
▁исчез	-10.1446
▁супруг	-10.1448
▁бюджет	-10.1502
▁специально	-10.1502
▁обязан	-10.1502
▁первую	-10.1502
▁асфальт	-10.1557
американски	-10.1558
▁знач	-10.161
▁симпатичн	-10.1614
▁оставил	-10.1651
▁процесс	-10.1671
▁обнаружил	-10.1727
▁детям	-10.1727
▁добрый	-10.1727
▁козел	-10.1728
▁район	-10.1729
▁неожиданно	-10.1784
▁иностран	-10.1784
▁скандал	-10.1799
▁солнце	-10.1842
▁документ	-10.1842
▁кончил	-10.1856
▁решение	-10.19
▁пенсию	-10.1957
▁финансов	-10.1957
▁капитан	-10.1958
▁деньгами	-10.1958
▁услуг	-10.1958
▁удивлен	-10.1961
▁двумя	-10.2016
▁физик	-10.2021
▁единственный	-10.2075
▁качестве	-10.2075
▁повышен	-10.2084
▁приносит	-10.2113
▁москвы	-10.2134
▁буратино	-10.2193
▁сантехник	-10.2193
▁рецепт	-10.2193
▁мэр	-10.2195
▁запрещен	-10.2254
слушал	-10.2296
▁медленно	-10.2314
▁изменил	-10.2314
▁договор	-10.2314
▁несчаст	-10.2315
▁алкаш	-10.2315
▁большинство	-10.2374
▁прапорщик	-10.2374
▁увидеть	-10.2374
▁людьми	-10.2435
▁стыдно	-10.2435
▁кричал	-10.2436
▁неудач	-10.2439
▁показывает	-10.2497
▁интеллигент	-10.2558
▁успех	-10.2559
продавец	-10.2602
▁серьезно	-10.262
▁похмел	-10.2621
▁шахмат	-10.2683
▁полчаса	-10.2683
▁навстречу	-10.2746
▁оптимист	-10.2746
▁наступил	-10.2746
▁экран	-10.2746
▁алкоголик	-10.2809
▁замечательн	-10.2809
▁оргазм	-10.2809
▁благодаря	-10.2809
